1E44
0490
1FCA
0071
1FFA
0478
1FB8
1F69
1FED
1FDD
00CC
1DB3
0EFD
0923
003A
1E01
1FC0
189C
0367
1F82
040D
1FFA
1EDE
04AA
1DED
1FF8
0080
00CD
0331
1F42
0048
007C
1FC1
1FE4
1EB7
007A
0232
0000
170B
1C96
1BF0
1A62
1F20
1E44
0213
1AF6
1FE0
1B52
1DA4
1F06
1D93
0285
1F55
1F5D
0279
1F02
1EA3
1EEA
1E0E
1ADB
1FD6
1DF9
0070
1FEE

