3E62
035B
0282
3F28
3F51
3D2D
3EE8
3A3D
002E
0578
3F04
3A10
3F46
3CB7
3FE8
0387
0B6F
0008
3F70
0091
3CFC
01D8
3F06
02FA
0277
0242
38D5
3CD5
0803
3C3B
000E
3FFA
3F15
3E39
3D4C
00F0
3C6E
015D
069B
088B
3C61
3D42
3BF1
0252
0074
00F9
3338
0040
3FE6
0001
0848
3A6E
0097
3EEF
3AEB
3EFF
002C
0106
3DB3
0056
0071
2901
3E2B
3A17

