3018
33AD
3529
0000
0000
0EEC
2555
1A24
249E
2117
FFE5
222B
08F6
07F7
2564
293E
19C3
287F
CF99
0000
DECB
E055
0000
130E
2994
216D
21C6
2792
234B
15A5
0000
0000
2449
21ED
02D2
07CB
1040
24AC
0892
20B3
2FC8
0810
2D68
E18B
27A1
42D7
2AFF
2C74
169F
0000
2531
1AB2
0000
0000
193A
2164
259B
0000
1C10
1988
0000
129B
16B9
0F9D

