7FBB
000F
0000
7EEF
7FEE
6B21
7D14
7FF0
76FD
000A
7F68
7FFB
0008
7E9A
7F9E
7FE7
7FDF
7F0B
6EA7
7FC1
7FCB
008C
7F6F
79FE
0001
7EFF
0006
002A
7FD8
7FF2
7FB4
7F88
5335
000D
7EE2
7FFC
7FDD
7A46
7F15
7FCB
7FF6
7FEC
7FE1
001C
7FF1
0020
0001
0002
7FED
7F53
7FD0
0033
7F22
7F20
0041
7F87
7EB5
7F7A
7D7F
7E93
7F61
7FF2
000B
0002

