001F
3FE6
0001
001E
3F57
2937
00CA
3FF6
03C8
3E3B
0007
002B
003B
00A6
3AC2
00C4
3FCC
0160
3C5E
3FC3
3F92
3F26
3F47
3A98
3FF9
3B9C
004A
0016
3FE5
001C
3FA6
0006
24AE
0007
00DA
000A
0005
014D
2261
0030
3FEF
3FE2
3FFE
0037
3FEC
001D
0014
3FDF
3FF4
3FBD
3FFA
3F87
3EFB
3F90
3F84
3D65
3F44
3F03
01EB
00AE
3FAB
0002
0006
3E8D

