00C9
0021
1BFB
1F06
1F53
1FB4
1F94
07A7
1FCF
1FF9
1FCD
0121
0028
00DD
0033
1F29
0233
00DC
1FD1
1F8C
0232
022B
004D
006A
0635
1DB1
01F2
18CB
068D
021C
1F89
1F81
000F
1E2C
04B0
1B7E
0381
1EF0
0449
1D21
1E5E
049A
0283
09DB
1EBC
1DFB
0148
01A1
06DC
1F0A
011E
0471
1FCA
1FBD
038C
1C66
009F
1F9F
010F
017D
1FC1
02D5
1B75
1F29

