39C3
3DDB
05A1
3FE4
009A
03EC
001C
36CE
3F8F
056E
00F4
3E3F
3F2B
3E1D
0038
3B8D
02A4
361C
3FE1
3F4D
0479
362A
3F8C
0418
0414
0574
3E47
35C3
03A5
125B
3FD1
000E
0045
346C
3958
3D8C
0337
3D6C
3C95
01AF
081F
01CF
3537
3D51
3572
3EA3
3D00
3C1E
073A
3F61
017A
3C09
3EDE
0087
3BCB
031E
3EF7
3FB0
0420
3F5A
00AA
3E4D
362B
395C

