3EF
3E0
3CB
2FA
32B
01E
3D2
32F
3FE
3D7
2E3
007
3A8
2E7
002
3EC
2E3
0A8
3F6
3E9
17F
3E2
341
045
00E
019
2FC
3E9
213
2EE
2F4
391
00F
357
24A
2C5
01D
042
35F
036
11B
243
3DF
25E
0F7
0B5
0E0
0C5
2BB
2FD
05B
0A2
35D
3A2
1AA
10F
3E4
3D7
073
023
39D
0FC
3DD
1BF

