011
C90
0C2
F7F
F49
FDD
FED
DC0
FE2
D85
F86
083
F54
FC0
FE8
F93
D1D
DED
FEE
036
F9F
0F0
0C3
FD1
F8A
045
5A3
413
F9E
D43
F58
F6A
FE3
8BC
EFE
261
C8A
01F
EEF
214
F5B
17B
10B
F62
137
054
11C
07E
E61
F52
E91
006
F77
F0C
DEE
110
FF7
FAA
17A
FE6
0AA
0BC
7AA
0CE

