0168
197E
0176
00CC
1FC5
03B6
1F6F
13F1
1D4C
02E6
00F6
0609
16FC
0100
192A
0334
08A4
1F69
1F25
1EED
0240
0286
00CA
03C2
1478
1CB9
00AF
1E5D
1956
04A2
0059
1F3E
1D5F
0F68
08DB
0D15
0941
1C46
0067
01B4
1F08
0E5F
0785
1B6F
18E3
124D
1A50
1EDF
0D7F
008A
1F46
0832
00B3
1F79
07A9
0149
1FB2
1FE1
1CB1
1A08
1F11
1F31
1842
1F1F

